{
  "version": "1.0",
  "truncation": null,
  "padding": null,
  "added_tokens": [],
  "normalizer": null,
  "pre_tokenizer": {
    "type": "ByteLevel",
    "add_prefix_space": false,
    "trim_offsets": true,
    "use_regex": true
  },
  "post_processor": null,
  "decoder": null,
  "model": {
    "type": "BPE",
    "dropout": null,
    "unk_token": null,
    "continuing_subword_prefix": null,
    "end_of_word_suffix": null,
    "fuse_unk": false,
    "byte_fallback": false,
    "ignore_merges": false,
    "vocab": {
      "A": 0,
      "B": 1,
      "C": 2,
      "D": 3,
      "E": 4,
      "F": 5,
      "G": 6,
      "H": 7,
      "I": 8,
      "J": 9,
      "K": 10,
      "L": 11,
      "M": 12,
      "N": 13,
      "O": 14,
      "P": 15,
      "Q": 16,
      "R": 17,
      "S": 18,
      "T": 19,
      "U": 20,
      "V": 21,
      "W": 22,
      "X": 23,
      "Y": 24,
      "Z": 25,
      "\\": 26,
      "a": 27,
      "b": 28,
      "c": 29,
      "d": 30,
      "e": 31,
      "f": 32,
      "g": 33,
      "h": 34,
      "i": 35,
      "j": 36,
      "k": 37,
      "l": 38,
      "m": 39,
      "n": 40,
      "o": 41,
      "p": 42,
      "q": 43,
      "r": 44,
      "s": 45,
      "t": 46,
      "u": 47,
      "v": 48,
      "w": 49,
      "x": 50,
      "y": 51,
      "z": 52,
      "Ċ": 53,
      "ij": 54,
      "dx": 55,
      "ax": 56,
      "ab": 57,
      "xy": 58,
      "dt": 59,
      "dy": 60,
      "xx": 61,
      "bx": 62,
      "ji": 63,
      "TM": 64,
      "cx": 65,
      "dz": 66,
      "jk": 67,
      "ik": 68,
      "yy": 69,
      "Bx": 70,
      "ii": 71,
      "mn": 72,
      "yx": 73,
      "AB": 74,
      "Ax": 75,
      "ac": 76,
      "bc": 77,
      "cz": 78,
      "df": 79,
      "Sq": 80,
      "az": 81,
      "ds": 82,
      "iy": 83,
      "kj": 84,
      "xD": 85,
      "ct": 86,
      "du": 87,
      "yz": 88,
      "CD": 89,
      "by": 90,
      "fg": 91,
      "kx": 92,
      "nx": 93,
      "pq": 94,
      "uv": 95,
      "AC": 96,
      "bP": 97,
      "bi": 98,
      "dX": 99,
      "dd": 100,
      "ix": 101,
      "ss": 102,
      "uu": 103,
      "Ae": 104,
      "BC": 105,
      "DF": 106,
      "IJ": 107,
      "LM": 108,
      "PL": 109,
      "aw": 110,
      "cr": 111,
      "cv": 112,
      "dR": 113,
      "dv": 114,
      "er": 115,
      "iA": 116,
      "it": 117,
      "kl": 118,
      "px": 119,
      "th": 120,
      "zx": 121,
      "Av": 122,
      "BA": 123,
      "Ce": 124,
      "Df": 125,
      "RC": 126,
      "ad": 127,
      "ar": 128,
      "at": 129,
      "dF": 130,
      "dH": 131,
      "dw": 132,
      "ib": 133,
      "jj": 134,
      "kn": 135,
      "mt": 136,
      "nm": 137,
      "nq": 138,
      "pN": 139,
      "rs": 140,
      "sx": 141,
      "ti": 142,
      "tx": 143,
      "vu": 144,
      "xI": 145,
      "xL": 146,
      "xz": 147,
      "xdx": 148,
      "AD": 149,
      "BT": 150,
      "CX": 151,
      "DS": 152,
      "Du": 153,
      "EG": 154,
      "FP": 155,
      "It": 156,
      "LR": 157,
      "Lf": 158,
      "Lu": 159,
      "MN": 160,
      "NC": 161,
      "PC": 162,
      "PI": 163,
      "PQ": 164,
      "RX": 165,
      "Rf": 166,
      "Rx": 167,
      "ST": 168,
      "TS": 169,
      "TV": 170,
      "UV": 171,
      "VE": 172,
      "XY": 173,
      "aX": 174,
      "aq": 175,
      "ay": 176,
      "ba": 177,
      "be": 178,
      "bq": 179,
      "bz": 180,
      "dV": 181,
      "gS": 182,
      "gh": 183,
      "ih": 184,
      "io": 185,
      "ip": 186,
      "iv": 187,
      "kk": 188,
      "mk": 189,
      "mp": 190,
      "mr": 191,
      "np": 192,
      "rT": 193,
      "rx": 194,
      "sn": 195,
      "st": 196,
      "tX": 197,
      "tY": 198,
      "ta": 199,
      "tv": 200,
      "ty": 201,
      "zz": 202,
      "AP": 203,
      "AX": 204,
      "At": 205,
      "BG": 206,
      "By": 207,
      "CL": 208,
      "CM": 209,
      "CR": 210,
      "CV": 211,
      "Cn": 212,
      "Cx": 213,
      "DR": 214,
      "DT": 215,
      "De": 216,
      "Dw": 217,
      "Dy": 218,
      "FA": 219,
      "FN": 220,
      "FS": 221,
      "Hu": 222,
      "IG": 223,
      "KK": 224,
      "LP": 225,
      "LU": 226,
      "Ly": 227,
      "MR": 228,
      "NM": 229,
      "PF": 230,
      "PR": 231,
      "PV": 232,
      "PX": 233,
      "Px": 234,
      "RA": 235,
      "RI": 236,
      "SL": 237,
      "TN": 238,
      "TX": 239,
      "Tx": 240,
      "UP": 241,
      "VU": 242,
      "XC": 243,
      "Xf": 244,
      "aB": 245,
      "aL": 246,
      "aa": 247,
      "ap": 248,
      "as": 249,
      "bX": 250,
      "bY": 251,
      "bh": 252,
      "bp": 253,
      "bt": 254,
      "bw": 255,
      "dB": 256,
      "dE": 257,
      "dI": 258,
      "dL": 259,
      "dS": 260,
      "dg": 261,
      "di": 262,
      "dp": 263,
      "dr": 264,
      "iV": 265,
      "id": 266,
      "if": 267,
      "in": 268,
      "ir": 269,
      "iw": 270,
      "je": 271,
      "ke": 272,
      "kz": 273,
      "ma": 274,
      "mq": 275,
      "nD": 276,
      "nT": 277,
      "nW": 278,
      "nb": 279,
      "nc": 280,
      "pM": 281,
      "pb": 282,
      "pe": 283,
      "pt": 284,
      "pz": 285,
      "qd": 286,
      "qr": 287,
      "qt": 288,
      "qx": 289,
      "rt": 290,
      "sc": 291,
      "tI": 292,
      "tt": 293,
      "ua": 294,
      "ub": 295,
      "up": 296,
      "vb": 297,
      "wa": 298,
      "xM": 299,
      "xa": 300,
      "xe": 301,
      "xi": 302,
      "xu": 303,
      "yL": 304,
      "yg": 305,
      "yi": 306,
      "yj": 307,
      "zk": 308,
      "zs": 309,
      "zy": 310,
      "AA": 311,
      "AF": 312,
      "AL": 313,
      "AN": 314,
      "AS": 315,
      "AZ": 316,
      "Af": 317,
      "An": 318,
      "Ap": 319,
      "Au": 320,
      "BD": 321,
      "BE": 322,
      "BF": 323,
      "BH": 324,
      "BU": 325,
      "BV": 326,
      "CA": 327,
      "CB": 328,
      "CF": 329,
      "CG": 330,
      "CN": 331,
      "Cf": 332,
      "Ch": 333,
      "DA": 334,
      "DC": 335,
      "DE": 336,
      "DG": 337,
      "DP": 338,
      "DX": 339,
      "Dp": 340,
      "Dx": 341,
      "EB": 342,
      "ED": 343,
      "EF": 344,
      "EI": 345,
      "ES": 346,
      "Eu": 347,
      "FB": 348,
      "FG": 349,
      "FM": 350,
      "FX": 351,
      "Ff": 352,
      "Fi": 353,
      "GF": 354,
      "GM": 355,
      "HF": 356,
      "HH": 357,
      "HI": 358,
      "HT": 359,
      "IA": 360,
      "IC": 361,
      "IF": 362,
      "IH": 363,
      "IP": 364,
      "IQ": 365,
      "Id": 366,
      "If": 367,
      "Ix": 368,
      "JM": 369,
      "Je": 370,
      "Jf": 371,
      "Jt": 372,
      "Jx": 373,
      "KL": 374,
      "KS": 375,
      "LB": 376,
      "LE": 377,
      "LF": 378,
      "LN": 379,
      "Lv": 380,
      "MS": 381,
      "Mg": 382,
      "NA": 383,
      "NE": 384,
      "NP": 385,
      "NR": 386,
      "Nb": 387,
      "Nh": 388,
      "Nm": 389,
      "Nq": 390,
      "Ny": 391,
      "OB": 392,
      "OC": 393,
      "OQ": 394,
      "PH": 395,
      "PJ": 396,
      "PM": 397,
      "PP": 398,
      "PS": 399,
      "PU": 400,
      "PY": 401,
      "Ph": 402,
      "Po": 403,
      "Ps": 404,
      "Pu": 405,
      "QC": 406,
      "QI": 407,
      "QP": 408,
      "QR": 409,
      "Qr": 410,
      "RF": 411,
      "RG": 412,
      "RR": 413,
      "RS": 414,
      "SE": 415,
      "SH": 416,
      "SK": 417,
      "SN": 418,
      "SO": 419,
      "SV": 420,
      "SX": 421,
      "TB": 422,
      "TE": 423,
      "TP": 424,
      "TQ": 425,
      "TT": 426,
      "TW": 427,
      "Tn": 428,
      "Tu": 429,
      "Tv": 430,
      "UB": 431,
      "UU": 432,
      "UY": 433,
      "Va": 434,
      "Vt": 435,
      "WL": 436,
      "WQ": 437,
      "WR": 438,
      "Wf": 439,
      "XA": 440,
      "XB": 441,
      "XX": 442,
      "Xe": 443,
      "Xg": 444,
      "YX": 445,
      "Yf": 446,
      "aE": 447,
      "aG": 448,
      "aV": 449,
      "ae": 450,
      "af": 451,
      "ah": 452,
      "ak": 453,
      "an": 454,
      "au": 455,
      "adx": 456,
      "bd": 457,
      "bm": 458,
      "br": 459,
      "bu": 460,
      "bv": 461,
      "cI": 462,
      "cT": 463,
      "cb": 464,
      "cd": 465,
      "cg": 466,
      "cn": 467,
      "cp": 468,
      "cq": 469,
      "cs": 470,
      "dA": 471,
      "dC": 472,
      "dM": 473,
      "db": 474,
      "dc": 475,
      "dn": 476,
      "dq": 477,
      "eG": 478,
      "eN": 479,
      "ec": 480,
      "ed": 481,
      "et": 482,
      "fY": 483,
      "fh": 484,
      "fs": 485,
      "fx": 486,
      "gN": 487,
      "gP": 488,
      "gR": 489,
      "gf": 490,
      "gg": 491,
      "gr": 492,
      "gx": 493,
      "ha": 494,
      "hb": 495,
      "hg": 496,
      "hj": 497,
      "hr": 498,
      "hv": 499,
      "iB": 500,
      "iC": 501,
      "iE": 502,
      "iH": 503,
      "iJ": 504,
      "iM": 505,
      "iT": 506,
      "iY": 507,
      "ie": 508,
      "ig": 509,
      "is": 510,
      "iu": 511,
      "jM": 512,
      "jd": 513,
      "jh": 514,
      "jl": 515,
      "js": 516,
      "kL": 517,
      "kQ": 518,
      "kT": 519,
      "kd": 520,
      "kh": 521,
      "ki": 522,
      "kp": 523,
      "kt": 524,
      "ky": 525,
      "lc": 526,
      "ll": 527,
      "lm": 528,
      "ln": 529,
      "mJ": 530,
      "mT": 531,
      "mX": 532,
      "mb": 533,
      "mc": 534,
      "ms": 535,
      "mx": 536,
      "my": 537,
      "nA": 538,
      "nH": 539,
      "nK": 540,
      "nd": 541,
      "ne": 542,
      "nf": 543,
      "nk": 544,
      "nn": 545,
      "nr": 546,
      "ns": 547,
      "nu": 548,
      "ny": 549,
      "ndx": 550,
      "oi": 551,
      "pA": 552,
      "pR": 553,
      "pS": 554,
      "pX": 555,
      "pn": 556,
      "pp": 557,
      "pr": 558,
      "ps": 559,
      "qF": 560,
      "qL": 561,
      "qN": 562,
      "qQ": 563,
      "qf": 564,
      "qk": 565,
      "qs": 566,
      "qz": 567,
      "rD": 568,
      "rI": 569,
      "rQ": 570,
      "ra": 571,
      "re": 572,
      "rf": 573,
      "rn": 574,
      "sX": 575,
      "sa": 576,
      "sf": 577,
      "sh": 578,
      "su": 579,
      "sv": 580,
      "tE": 581,
      "tb": 582,
      "te": 583,
      "tr": 584,
      "ts": 585,
      "tu": 586,
      "uE": 587,
      "ui": 588,
      "ul": 589,
      "ut": 590,
      "uw": 591,
      "vj": 592,
      "vq": 593,
      "vw": 594,
      "we": 595,
      "wk": 596,
      "xt": 597,
      "yJ": 598,
      "yb": 599,
      "yr": 600,
      "yt": 601,
      "zL": 602,
      "zb": 603,
      "zf": 604
    },
    "merges": [
      [
        "i",
        "j"
      ],
      [
        "d",
        "x"
      ],
      [
        "a",
        "x"
      ],
      [
        "a",
        "b"
      ],
      [
        "x",
        "y"
      ],
      [
        "d",
        "t"
      ],
      [
        "d",
        "y"
      ],
      [
        "x",
        "x"
      ],
      [
        "b",
        "x"
      ],
      [
        "j",
        "i"
      ],
      [
        "T",
        "M"
      ],
      [
        "c",
        "x"
      ],
      [
        "d",
        "z"
      ],
      [
        "j",
        "k"
      ],
      [
        "i",
        "k"
      ],
      [
        "y",
        "y"
      ],
      [
        "B",
        "x"
      ],
      [
        "i",
        "i"
      ],
      [
        "m",
        "n"
      ],
      [
        "y",
        "x"
      ],
      [
        "A",
        "B"
      ],
      [
        "A",
        "x"
      ],
      [
        "a",
        "c"
      ],
      [
        "b",
        "c"
      ],
      [
        "c",
        "z"
      ],
      [
        "d",
        "f"
      ],
      [
        "S",
        "q"
      ],
      [
        "a",
        "z"
      ],
      [
        "d",
        "s"
      ],
      [
        "i",
        "y"
      ],
      [
        "k",
        "j"
      ],
      [
        "x",
        "D"
      ],
      [
        "c",
        "t"
      ],
      [
        "d",
        "u"
      ],
      [
        "y",
        "z"
      ],
      [
        "C",
        "D"
      ],
      [
        "b",
        "y"
      ],
      [
        "f",
        "g"
      ],
      [
        "k",
        "x"
      ],
      [
        "n",
        "x"
      ],
      [
        "p",
        "q"
      ],
      [
        "u",
        "v"
      ],
      [
        "A",
        "C"
      ],
      [
        "b",
        "P"
      ],
      [
        "b",
        "i"
      ],
      [
        "d",
        "X"
      ],
      [
        "d",
        "d"
      ],
      [
        "i",
        "x"
      ],
      [
        "s",
        "s"
      ],
      [
        "u",
        "u"
      ],
      [
        "A",
        "e"
      ],
      [
        "B",
        "C"
      ],
      [
        "D",
        "F"
      ],
      [
        "I",
        "J"
      ],
      [
        "L",
        "M"
      ],
      [
        "P",
        "L"
      ],
      [
        "a",
        "w"
      ],
      [
        "c",
        "r"
      ],
      [
        "c",
        "v"
      ],
      [
        "d",
        "R"
      ],
      [
        "d",
        "v"
      ],
      [
        "e",
        "r"
      ],
      [
        "i",
        "A"
      ],
      [
        "i",
        "t"
      ],
      [
        "k",
        "l"
      ],
      [
        "p",
        "x"
      ],
      [
        "t",
        "h"
      ],
      [
        "z",
        "x"
      ],
      [
        "A",
        "v"
      ],
      [
        "B",
        "A"
      ],
      [
        "C",
        "e"
      ],
      [
        "D",
        "f"
      ],
      [
        "R",
        "C"
      ],
      [
        "a",
        "d"
      ],
      [
        "a",
        "r"
      ],
      [
        "a",
        "t"
      ],
      [
        "d",
        "F"
      ],
      [
        "d",
        "H"
      ],
      [
        "d",
        "w"
      ],
      [
        "i",
        "b"
      ],
      [
        "j",
        "j"
      ],
      [
        "k",
        "n"
      ],
      [
        "m",
        "t"
      ],
      [
        "n",
        "m"
      ],
      [
        "n",
        "q"
      ],
      [
        "p",
        "N"
      ],
      [
        "r",
        "s"
      ],
      [
        "s",
        "x"
      ],
      [
        "t",
        "i"
      ],
      [
        "t",
        "x"
      ],
      [
        "v",
        "u"
      ],
      [
        "x",
        "I"
      ],
      [
        "x",
        "L"
      ],
      [
        "x",
        "z"
      ],
      [
        "x",
        "dx"
      ],
      [
        "A",
        "D"
      ],
      [
        "B",
        "T"
      ],
      [
        "C",
        "X"
      ],
      [
        "D",
        "S"
      ],
      [
        "D",
        "u"
      ],
      [
        "E",
        "G"
      ],
      [
        "F",
        "P"
      ],
      [
        "I",
        "t"
      ],
      [
        "L",
        "R"
      ],
      [
        "L",
        "f"
      ],
      [
        "L",
        "u"
      ],
      [
        "M",
        "N"
      ],
      [
        "N",
        "C"
      ],
      [
        "P",
        "C"
      ],
      [
        "P",
        "I"
      ],
      [
        "P",
        "Q"
      ],
      [
        "R",
        "X"
      ],
      [
        "R",
        "f"
      ],
      [
        "R",
        "x"
      ],
      [
        "S",
        "T"
      ],
      [
        "T",
        "S"
      ],
      [
        "T",
        "V"
      ],
      [
        "U",
        "V"
      ],
      [
        "V",
        "E"
      ],
      [
        "X",
        "Y"
      ],
      [
        "a",
        "X"
      ],
      [
        "a",
        "q"
      ],
      [
        "a",
        "y"
      ],
      [
        "b",
        "a"
      ],
      [
        "b",
        "e"
      ],
      [
        "b",
        "q"
      ],
      [
        "b",
        "z"
      ],
      [
        "d",
        "V"
      ],
      [
        "g",
        "S"
      ],
      [
        "g",
        "h"
      ],
      [
        "i",
        "h"
      ],
      [
        "i",
        "o"
      ],
      [
        "i",
        "p"
      ],
      [
        "i",
        "v"
      ],
      [
        "k",
        "k"
      ],
      [
        "m",
        "k"
      ],
      [
        "m",
        "p"
      ],
      [
        "m",
        "r"
      ],
      [
        "n",
        "p"
      ],
      [
        "r",
        "T"
      ],
      [
        "r",
        "x"
      ],
      [
        "s",
        "n"
      ],
      [
        "s",
        "t"
      ],
      [
        "t",
        "X"
      ],
      [
        "t",
        "Y"
      ],
      [
        "t",
        "a"
      ],
      [
        "t",
        "v"
      ],
      [
        "t",
        "y"
      ],
      [
        "z",
        "z"
      ],
      [
        "A",
        "P"
      ],
      [
        "A",
        "X"
      ],
      [
        "A",
        "t"
      ],
      [
        "B",
        "G"
      ],
      [
        "B",
        "y"
      ],
      [
        "C",
        "L"
      ],
      [
        "C",
        "M"
      ],
      [
        "C",
        "R"
      ],
      [
        "C",
        "V"
      ],
      [
        "C",
        "n"
      ],
      [
        "C",
        "x"
      ],
      [
        "D",
        "R"
      ],
      [
        "D",
        "T"
      ],
      [
        "D",
        "e"
      ],
      [
        "D",
        "w"
      ],
      [
        "D",
        "y"
      ],
      [
        "F",
        "A"
      ],
      [
        "F",
        "N"
      ],
      [
        "F",
        "S"
      ],
      [
        "H",
        "u"
      ],
      [
        "I",
        "G"
      ],
      [
        "K",
        "K"
      ],
      [
        "L",
        "P"
      ],
      [
        "L",
        "U"
      ],
      [
        "L",
        "y"
      ],
      [
        "M",
        "R"
      ],
      [
        "N",
        "M"
      ],
      [
        "P",
        "F"
      ],
      [
        "P",
        "R"
      ],
      [
        "P",
        "V"
      ],
      [
        "P",
        "X"
      ],
      [
        "P",
        "x"
      ],
      [
        "R",
        "A"
      ],
      [
        "R",
        "I"
      ],
      [
        "S",
        "L"
      ],
      [
        "T",
        "N"
      ],
      [
        "T",
        "X"
      ],
      [
        "T",
        "x"
      ],
      [
        "U",
        "P"
      ],
      [
        "V",
        "U"
      ],
      [
        "X",
        "C"
      ],
      [
        "X",
        "f"
      ],
      [
        "a",
        "B"
      ],
      [
        "a",
        "L"
      ],
      [
        "a",
        "a"
      ],
      [
        "a",
        "p"
      ],
      [
        "a",
        "s"
      ],
      [
        "b",
        "X"
      ],
      [
        "b",
        "Y"
      ],
      [
        "b",
        "h"
      ],
      [
        "b",
        "p"
      ],
      [
        "b",
        "t"
      ],
      [
        "b",
        "w"
      ],
      [
        "d",
        "B"
      ],
      [
        "d",
        "E"
      ],
      [
        "d",
        "I"
      ],
      [
        "d",
        "L"
      ],
      [
        "d",
        "S"
      ],
      [
        "d",
        "g"
      ],
      [
        "d",
        "i"
      ],
      [
        "d",
        "p"
      ],
      [
        "d",
        "r"
      ],
      [
        "i",
        "V"
      ],
      [
        "i",
        "d"
      ],
      [
        "i",
        "f"
      ],
      [
        "i",
        "n"
      ],
      [
        "i",
        "r"
      ],
      [
        "i",
        "w"
      ],
      [
        "j",
        "e"
      ],
      [
        "k",
        "e"
      ],
      [
        "k",
        "z"
      ],
      [
        "m",
        "a"
      ],
      [
        "m",
        "q"
      ],
      [
        "n",
        "D"
      ],
      [
        "n",
        "T"
      ],
      [
        "n",
        "W"
      ],
      [
        "n",
        "b"
      ],
      [
        "n",
        "c"
      ],
      [
        "p",
        "M"
      ],
      [
        "p",
        "b"
      ],
      [
        "p",
        "e"
      ],
      [
        "p",
        "t"
      ],
      [
        "p",
        "z"
      ],
      [
        "q",
        "d"
      ],
      [
        "q",
        "r"
      ],
      [
        "q",
        "t"
      ],
      [
        "q",
        "x"
      ],
      [
        "r",
        "t"
      ],
      [
        "s",
        "c"
      ],
      [
        "t",
        "I"
      ],
      [
        "t",
        "t"
      ],
      [
        "u",
        "a"
      ],
      [
        "u",
        "b"
      ],
      [
        "u",
        "p"
      ],
      [
        "v",
        "b"
      ],
      [
        "w",
        "a"
      ],
      [
        "x",
        "M"
      ],
      [
        "x",
        "a"
      ],
      [
        "x",
        "e"
      ],
      [
        "x",
        "i"
      ],
      [
        "x",
        "u"
      ],
      [
        "y",
        "L"
      ],
      [
        "y",
        "g"
      ],
      [
        "y",
        "i"
      ],
      [
        "y",
        "j"
      ],
      [
        "z",
        "k"
      ],
      [
        "z",
        "s"
      ],
      [
        "z",
        "y"
      ],
      [
        "A",
        "A"
      ],
      [
        "A",
        "F"
      ],
      [
        "A",
        "L"
      ],
      [
        "A",
        "N"
      ],
      [
        "A",
        "S"
      ],
      [
        "A",
        "Z"
      ],
      [
        "A",
        "f"
      ],
      [
        "A",
        "n"
      ],
      [
        "A",
        "p"
      ],
      [
        "A",
        "u"
      ],
      [
        "B",
        "D"
      ],
      [
        "B",
        "E"
      ],
      [
        "B",
        "F"
      ],
      [
        "B",
        "H"
      ],
      [
        "B",
        "U"
      ],
      [
        "B",
        "V"
      ],
      [
        "C",
        "A"
      ],
      [
        "C",
        "B"
      ],
      [
        "C",
        "F"
      ],
      [
        "C",
        "G"
      ],
      [
        "C",
        "N"
      ],
      [
        "C",
        "f"
      ],
      [
        "C",
        "h"
      ],
      [
        "D",
        "A"
      ],
      [
        "D",
        "C"
      ],
      [
        "D",
        "E"
      ],
      [
        "D",
        "G"
      ],
      [
        "D",
        "P"
      ],
      [
        "D",
        "X"
      ],
      [
        "D",
        "p"
      ],
      [
        "D",
        "x"
      ],
      [
        "E",
        "B"
      ],
      [
        "E",
        "D"
      ],
      [
        "E",
        "F"
      ],
      [
        "E",
        "I"
      ],
      [
        "E",
        "S"
      ],
      [
        "E",
        "u"
      ],
      [
        "F",
        "B"
      ],
      [
        "F",
        "G"
      ],
      [
        "F",
        "M"
      ],
      [
        "F",
        "X"
      ],
      [
        "F",
        "f"
      ],
      [
        "F",
        "i"
      ],
      [
        "G",
        "F"
      ],
      [
        "G",
        "M"
      ],
      [
        "H",
        "F"
      ],
      [
        "H",
        "H"
      ],
      [
        "H",
        "I"
      ],
      [
        "H",
        "T"
      ],
      [
        "I",
        "A"
      ],
      [
        "I",
        "C"
      ],
      [
        "I",
        "F"
      ],
      [
        "I",
        "H"
      ],
      [
        "I",
        "P"
      ],
      [
        "I",
        "Q"
      ],
      [
        "I",
        "d"
      ],
      [
        "I",
        "f"
      ],
      [
        "I",
        "x"
      ],
      [
        "J",
        "M"
      ],
      [
        "J",
        "e"
      ],
      [
        "J",
        "f"
      ],
      [
        "J",
        "t"
      ],
      [
        "J",
        "x"
      ],
      [
        "K",
        "L"
      ],
      [
        "K",
        "S"
      ],
      [
        "L",
        "B"
      ],
      [
        "L",
        "E"
      ],
      [
        "L",
        "F"
      ],
      [
        "L",
        "N"
      ],
      [
        "L",
        "v"
      ],
      [
        "M",
        "S"
      ],
      [
        "M",
        "g"
      ],
      [
        "N",
        "A"
      ],
      [
        "N",
        "E"
      ],
      [
        "N",
        "P"
      ],
      [
        "N",
        "R"
      ],
      [
        "N",
        "b"
      ],
      [
        "N",
        "h"
      ],
      [
        "N",
        "m"
      ],
      [
        "N",
        "q"
      ],
      [
        "N",
        "y"
      ],
      [
        "O",
        "B"
      ],
      [
        "O",
        "C"
      ],
      [
        "O",
        "Q"
      ],
      [
        "P",
        "H"
      ],
      [
        "P",
        "J"
      ],
      [
        "P",
        "M"
      ],
      [
        "P",
        "P"
      ],
      [
        "P",
        "S"
      ],
      [
        "P",
        "U"
      ],
      [
        "P",
        "Y"
      ],
      [
        "P",
        "h"
      ],
      [
        "P",
        "o"
      ],
      [
        "P",
        "s"
      ],
      [
        "P",
        "u"
      ],
      [
        "Q",
        "C"
      ],
      [
        "Q",
        "I"
      ],
      [
        "Q",
        "P"
      ],
      [
        "Q",
        "R"
      ],
      [
        "Q",
        "r"
      ],
      [
        "R",
        "F"
      ],
      [
        "R",
        "G"
      ],
      [
        "R",
        "R"
      ],
      [
        "R",
        "S"
      ],
      [
        "S",
        "E"
      ],
      [
        "S",
        "H"
      ],
      [
        "S",
        "K"
      ],
      [
        "S",
        "N"
      ],
      [
        "S",
        "O"
      ],
      [
        "S",
        "V"
      ],
      [
        "S",
        "X"
      ],
      [
        "T",
        "B"
      ],
      [
        "T",
        "E"
      ],
      [
        "T",
        "P"
      ],
      [
        "T",
        "Q"
      ],
      [
        "T",
        "T"
      ],
      [
        "T",
        "W"
      ],
      [
        "T",
        "n"
      ],
      [
        "T",
        "u"
      ],
      [
        "T",
        "v"
      ],
      [
        "U",
        "B"
      ],
      [
        "U",
        "U"
      ],
      [
        "U",
        "Y"
      ],
      [
        "V",
        "a"
      ],
      [
        "V",
        "t"
      ],
      [
        "W",
        "L"
      ],
      [
        "W",
        "Q"
      ],
      [
        "W",
        "R"
      ],
      [
        "W",
        "f"
      ],
      [
        "X",
        "A"
      ],
      [
        "X",
        "B"
      ],
      [
        "X",
        "X"
      ],
      [
        "X",
        "e"
      ],
      [
        "X",
        "g"
      ],
      [
        "Y",
        "X"
      ],
      [
        "Y",
        "f"
      ],
      [
        "a",
        "E"
      ],
      [
        "a",
        "G"
      ],
      [
        "a",
        "V"
      ],
      [
        "a",
        "e"
      ],
      [
        "a",
        "f"
      ],
      [
        "a",
        "h"
      ],
      [
        "a",
        "k"
      ],
      [
        "a",
        "n"
      ],
      [
        "a",
        "u"
      ],
      [
        "a",
        "dx"
      ],
      [
        "b",
        "d"
      ],
      [
        "b",
        "m"
      ],
      [
        "b",
        "r"
      ],
      [
        "b",
        "u"
      ],
      [
        "b",
        "v"
      ],
      [
        "c",
        "I"
      ],
      [
        "c",
        "T"
      ],
      [
        "c",
        "b"
      ],
      [
        "c",
        "d"
      ],
      [
        "c",
        "g"
      ],
      [
        "c",
        "n"
      ],
      [
        "c",
        "p"
      ],
      [
        "c",
        "q"
      ],
      [
        "c",
        "s"
      ],
      [
        "d",
        "A"
      ],
      [
        "d",
        "C"
      ],
      [
        "d",
        "M"
      ],
      [
        "d",
        "b"
      ],
      [
        "d",
        "c"
      ],
      [
        "d",
        "n"
      ],
      [
        "d",
        "q"
      ],
      [
        "e",
        "G"
      ],
      [
        "e",
        "N"
      ],
      [
        "e",
        "c"
      ],
      [
        "e",
        "d"
      ],
      [
        "e",
        "t"
      ],
      [
        "f",
        "Y"
      ],
      [
        "f",
        "h"
      ],
      [
        "f",
        "s"
      ],
      [
        "f",
        "x"
      ],
      [
        "g",
        "N"
      ],
      [
        "g",
        "P"
      ],
      [
        "g",
        "R"
      ],
      [
        "g",
        "f"
      ],
      [
        "g",
        "g"
      ],
      [
        "g",
        "r"
      ],
      [
        "g",
        "x"
      ],
      [
        "h",
        "a"
      ],
      [
        "h",
        "b"
      ],
      [
        "h",
        "g"
      ],
      [
        "h",
        "j"
      ],
      [
        "h",
        "r"
      ],
      [
        "h",
        "v"
      ],
      [
        "i",
        "B"
      ],
      [
        "i",
        "C"
      ],
      [
        "i",
        "E"
      ],
      [
        "i",
        "H"
      ],
      [
        "i",
        "J"
      ],
      [
        "i",
        "M"
      ],
      [
        "i",
        "T"
      ],
      [
        "i",
        "Y"
      ],
      [
        "i",
        "e"
      ],
      [
        "i",
        "g"
      ],
      [
        "i",
        "s"
      ],
      [
        "i",
        "u"
      ],
      [
        "j",
        "M"
      ],
      [
        "j",
        "d"
      ],
      [
        "j",
        "h"
      ],
      [
        "j",
        "l"
      ],
      [
        "j",
        "s"
      ],
      [
        "k",
        "L"
      ],
      [
        "k",
        "Q"
      ],
      [
        "k",
        "T"
      ],
      [
        "k",
        "d"
      ],
      [
        "k",
        "h"
      ],
      [
        "k",
        "i"
      ],
      [
        "k",
        "p"
      ],
      [
        "k",
        "t"
      ],
      [
        "k",
        "y"
      ],
      [
        "l",
        "c"
      ],
      [
        "l",
        "l"
      ],
      [
        "l",
        "m"
      ],
      [
        "l",
        "n"
      ],
      [
        "m",
        "J"
      ],
      [
        "m",
        "T"
      ],
      [
        "m",
        "X"
      ],
      [
        "m",
        "b"
      ],
      [
        "m",
        "c"
      ],
      [
        "m",
        "s"
      ],
      [
        "m",
        "x"
      ],
      [
        "m",
        "y"
      ],
      [
        "n",
        "A"
      ],
      [
        "n",
        "H"
      ],
      [
        "n",
        "K"
      ],
      [
        "n",
        "d"
      ],
      [
        "n",
        "e"
      ],
      [
        "n",
        "f"
      ],
      [
        "n",
        "k"
      ],
      [
        "n",
        "n"
      ],
      [
        "n",
        "r"
      ],
      [
        "n",
        "s"
      ],
      [
        "n",
        "u"
      ],
      [
        "n",
        "y"
      ],
      [
        "n",
        "dx"
      ],
      [
        "o",
        "i"
      ],
      [
        "p",
        "A"
      ],
      [
        "p",
        "R"
      ],
      [
        "p",
        "S"
      ],
      [
        "p",
        "X"
      ],
      [
        "p",
        "n"
      ],
      [
        "p",
        "p"
      ],
      [
        "p",
        "r"
      ],
      [
        "p",
        "s"
      ],
      [
        "q",
        "F"
      ],
      [
        "q",
        "L"
      ],
      [
        "q",
        "N"
      ],
      [
        "q",
        "Q"
      ],
      [
        "q",
        "f"
      ],
      [
        "q",
        "k"
      ],
      [
        "q",
        "s"
      ],
      [
        "q",
        "z"
      ],
      [
        "r",
        "D"
      ],
      [
        "r",
        "I"
      ],
      [
        "r",
        "Q"
      ],
      [
        "r",
        "a"
      ],
      [
        "r",
        "e"
      ],
      [
        "r",
        "f"
      ],
      [
        "r",
        "n"
      ],
      [
        "s",
        "X"
      ],
      [
        "s",
        "a"
      ],
      [
        "s",
        "f"
      ],
      [
        "s",
        "h"
      ],
      [
        "s",
        "u"
      ],
      [
        "s",
        "v"
      ],
      [
        "t",
        "E"
      ],
      [
        "t",
        "b"
      ],
      [
        "t",
        "e"
      ],
      [
        "t",
        "r"
      ],
      [
        "t",
        "s"
      ],
      [
        "t",
        "u"
      ],
      [
        "u",
        "E"
      ],
      [
        "u",
        "i"
      ],
      [
        "u",
        "l"
      ],
      [
        "u",
        "t"
      ],
      [
        "u",
        "w"
      ],
      [
        "v",
        "j"
      ],
      [
        "v",
        "q"
      ],
      [
        "v",
        "w"
      ],
      [
        "w",
        "e"
      ],
      [
        "w",
        "k"
      ],
      [
        "x",
        "t"
      ],
      [
        "y",
        "J"
      ],
      [
        "y",
        "b"
      ],
      [
        "y",
        "r"
      ],
      [
        "y",
        "t"
      ],
      [
        "z",
        "L"
      ],
      [
        "z",
        "b"
      ],
      [
        "z",
        "f"
      ]
    ]
  }
}